// The TensorFlow Lite model to be used.
const unsigned char model[] = {
  0x1c, 0x00, 0x00, 0x00, 0x54, 0x46, 0x4c, 0x33, 0x14, 0x00, 0x20, 0x00,
  0x1c, 0x00, 0x18, 0x00, 0x14, 0x00, 0x10, 0x00, 0x0c, 0x00, 0x00, 0x00,
  0x08, 0x00, 0x04, 0x00, 0x14, 0x00, 0x00, 0x00, 0x1c, 0x00, 0x00, 0x00,
  0x8c, 0x00, 0x00, 0x00, 0xe4, 0x00, 0x00, 0x00, 0x50, 0x06, 0x00, 0x00,
  0x60, 0x06, 0x00, 0x00, 0x4c, 0x0c, 0x00, 0x00, 0x03, 0x00, 0x00, 0x00,
  0x01, 0x00, 0x00, 0x00, 0x04, 0x00, 0x00, 0x00, 0x62, 0xf9, 0xff, 0xff,
  0x0c, 0x00, 0x00, 0x00, 0x1c, 0x00, 0x00, 0x00, 0x3c, 0x00, 0x00, 0x00,
  0x0f, 0x00, 0x00, 0x00, 0x73, 0x65, 0x72, 0x76, 0x69, 0x6e, 0x67, 0x5f,
  0x64, 0x65, 0x66, 0x61, 0x75, 0x6c, 0x74, 0x00, 0x01, 0x00, 0x00, 0x00,
  0x04, 0x00, 0x00, 0x00, 0x90, 0xff, 0xff, 0xff, 0x0a, 0x00, 0x00, 0x00,
  0x04, 0x00, 0x00, 0x00, 0x09, 0x00, 0x00, 0x00, 0x64, 0x65, 0x6e, 0x73,
  0x65, 0x5f, 0x31, 0x30, 0x37, 0x00, 0x00, 0x00, 0x01, 0x00, 0x00, 0x00,
  0x04, 0x00, 0x00, 0x00, 0x36, 0xfa, 0xff, 0xff, 0x04, 0x00, 0x00, 0x00,
  0x0f, 0x00, 0x00, 0x00, 0x64, 0x65, 0x6e, 0x73, 0x65, 0x5f, 0x31, 0x30,
  0x35, 0x5f, 0x69, 0x6e, 0x70, 0x75, 0x74, 0x00, 0x02, 0x00, 0x00, 0x00,
  0x34, 0x00, 0x00, 0x00, 0x04, 0x00, 0x00, 0x00, 0xdc, 0xff, 0xff, 0xff,
  0x0d, 0x00, 0x00, 0x00, 0x04, 0x00, 0x00, 0x00, 0x13, 0x00, 0x00, 0x00,
  0x43, 0x4f, 0x4e, 0x56, 0x45, 0x52, 0x53, 0x49, 0x4f, 0x4e, 0x5f, 0x4d,
  0x45, 0x54, 0x41, 0x44, 0x41, 0x54, 0x41, 0x00, 0x08, 0x00, 0x0c, 0x00,
  0x08, 0x00, 0x04, 0x00, 0x08, 0x00, 0x00, 0x00, 0x0c, 0x00, 0x00, 0x00,
  0x04, 0x00, 0x00, 0x00, 0x13, 0x00, 0x00, 0x00, 0x6d, 0x69, 0x6e, 0x5f,
  0x72, 0x75, 0x6e, 0x74, 0x69, 0x6d, 0x65, 0x5f, 0x76, 0x65, 0x72, 0x73,
  0x69, 0x6f, 0x6e, 0x00, 0x0e, 0x00, 0x00, 0x00, 0x68, 0x05, 0x00, 0x00,
  0x60, 0x05, 0x00, 0x00, 0x4c, 0x05, 0x00, 0x00, 0x08, 0x05, 0x00, 0x00,
  0xcc, 0x04, 0x00, 0x00, 0xd8, 0x02, 0x00, 0x00, 0xe4, 0x00, 0x00, 0x00,
  0xa8, 0x00, 0x00, 0x00, 0xa0, 0x00, 0x00, 0x00, 0x98, 0x00, 0x00, 0x00,
  0x90, 0x00, 0x00, 0x00, 0x88, 0x00, 0x00, 0x00, 0x68, 0x00, 0x00, 0x00,
  0x04, 0x00, 0x00, 0x00, 0xea, 0xfa, 0xff, 0xff, 0x04, 0x00, 0x00, 0x00,
  0x54, 0x00, 0x00, 0x00, 0x0c, 0x00, 0x00, 0x00, 0x08, 0x00, 0x0e, 0x00,
  0x08, 0x00, 0x04, 0x00, 0x08, 0x00, 0x00, 0x00, 0x10, 0x00, 0x00, 0x00,
  0x24, 0x00, 0x00, 0x00, 0x00, 0x00, 0x06, 0x00, 0x08, 0x00, 0x04, 0x00,
  0x06, 0x00, 0x00, 0x00, 0x04, 0x00, 0x00, 0x00, 0x00, 0x00, 0x00, 0x00,
  0x00, 0x00, 0x0a, 0x00, 0x10, 0x00, 0x0c, 0x00, 0x08, 0x00, 0x04, 0x00,
  0x0a, 0x00, 0x00, 0x00, 0x02, 0x00, 0x00, 0x00, 0x02, 0x00, 0x00, 0x00,
  0x04, 0x00, 0x00, 0x00, 0x06, 0x00, 0x00, 0x00, 0x32, 0x2e, 0x31, 0x35,
  0x2e, 0x30, 0x00, 0x00, 0x4a, 0xfb, 0xff, 0xff, 0x04, 0x00, 0x00, 0x00,
  0x10, 0x00, 0x00, 0x00, 0x31, 0x2e, 0x31, 0x34, 0x2e, 0x30, 0x00, 0x00,
  0x00, 0x00, 0x00, 0x00, 0x00, 0x00, 0x00, 0x00, 0x80, 0xf5, 0xff, 0xff,
  0x84, 0xf5, 0xff, 0xff, 0x88, 0xf5, 0xff, 0xff, 0x8c, 0xf5, 0xff, 0xff,
  0x76, 0xfb, 0xff, 0xff, 0x04, 0x00, 0x00, 0x00, 0x2c, 0x00, 0x00, 0x00,
  0x10, 0x71, 0x85, 0xbe, 0xf2, 0x53, 0xb8, 0x3e, 0x7d, 0x28, 0x83, 0x3e,
  0x29, 0xad, 0x22, 0x3f, 0xc5, 0xa0, 0xbe, 0xbf, 0xeb, 0x40, 0x34, 0x3f,
  0xac, 0xee, 0x83, 0x3e, 0x8c, 0xda, 0x31, 0x3e, 0x5f, 0x3c, 0x99, 0x3e,
  0x2e, 0xdc, 0x5e, 0x3e, 0xaa, 0xee, 0x09, 0xbf, 0xae, 0xfb, 0xff, 0xff,
  0x04, 0x00, 0x00, 0x00, 0xe4, 0x01, 0x00, 0x00, 0xf5, 0xcb, 0x4d, 0xbf,
  0x4e, 0x93, 0xfa, 0xbe, 0x18, 0x70, 0x0a, 0x3e, 0x4d, 0x39, 0x4e, 0xbf,
  0xd8, 0x9a, 0xfe, 0x3d, 0xbc, 0x36, 0x01, 0xbf, 0x46, 0x4e, 0xa8, 0x3e,
  0x66, 0xd2, 0x28, 0xbf, 0x68, 0x60, 0xcd, 0x3e, 0xb0, 0x75, 0x5b, 0x3e,
  0xe3, 0x0a, 0x08, 0xbf, 0x52, 0x44, 0x0b, 0xbe, 0x00, 0xdd, 0x89, 0x3c,
  0x8c, 0xe6, 0x33, 0x3e, 0xc9, 0x70, 0xb3, 0xbe, 0x30, 0x32, 0xc6, 0xbd,
  0x80, 0x49, 0xad, 0x3b, 0xe8, 0x67, 0xd8, 0xbe, 0x40, 0xe3, 0x3b, 0x3d,
  0xf0, 0xe8, 0xad, 0x3d, 0x36, 0x78, 0xd6, 0xbe, 0xb0, 0xb7, 0x8f, 0xbe,
  0x2f, 0xa1, 0xd3, 0xbe, 0x64, 0x26, 0x98, 0x3d, 0xf1, 0xd6, 0x43, 0x3d,
  0x86, 0xbd, 0xfe, 0x3e, 0xde, 0xea, 0xad, 0x3e, 0x1f, 0x22, 0x67, 0x3e,
  0xbd, 0x79, 0xa5, 0xbe, 0x00, 0xbb, 0x34, 0xbe, 0x7d, 0x5c, 0xa6, 0xbe,
  0xdb, 0xe3, 0xae, 0xbe, 0x97, 0xf8, 0x1e, 0xbf, 0xf6, 0x12, 0x6c, 0x3e,
  0x76, 0xba, 0xb8, 0x3e, 0x6f, 0xac, 0x53, 0xbe, 0x0c, 0x54, 0x81, 0x3e,
  0xd3, 0x06, 0x30, 0xbd, 0x16, 0xd0, 0xfd, 0xbe, 0x43, 0xbd, 0x10, 0xbe,
  0x30, 0x9f, 0xe1, 0xbe, 0xe2, 0xce, 0x22, 0x3e, 0x09, 0xd9, 0x1a, 0x3f,
  0xeb, 0x97, 0x96, 0xbf, 0x47, 0xcd, 0x36, 0x3e, 0x13, 0xaa, 0x1c, 0xbf,
  0x39, 0xb3, 0xe4, 0x3d, 0xe2, 0x38, 0x84, 0xbf, 0x21, 0x75, 0x54, 0x3d,
  0x5f, 0x71, 0xb0, 0xbd, 0x53, 0xa7, 0x0c, 0xbe, 0x96, 0x14, 0x59, 0x3f,
  0x00, 0x05, 0x42, 0x3e, 0x97, 0x29, 0xb3, 0xbe, 0xb2, 0x94, 0xa7, 0x3f,
  0xf5, 0xc8, 0xf2, 0xbd, 0x3d, 0xc2, 0x10, 0x3f, 0x2f, 0x6c, 0xcb, 0x3e,
  0x28, 0x8c, 0xc3, 0x3b, 0x6e, 0x31, 0xb6, 0x3d, 0x07, 0x87, 0x55, 0xbd,
  0xde, 0xe3, 0xa3, 0xbe, 0x6b, 0xaa, 0xa5, 0xbe, 0x5b, 0x45, 0xa5, 0x3e,
  0x7e, 0xdd, 0x2b, 0x3f, 0x19, 0xc2, 0x2f, 0xbf, 0xd0, 0xcf, 0xc0, 0x3c,
  0x3f, 0xb2, 0xb4, 0xbd, 0xce, 0x85, 0x61, 0xbe, 0x0e, 0xa8, 0xcc, 0x3e,
  0xb5, 0x43, 0x94, 0xbe, 0x43, 0x11, 0x06, 0xbe, 0xb8, 0x3c, 0x03, 0x3f,
  0xc6, 0xf4, 0xfa, 0xbe, 0x0d, 0x63, 0x94, 0x3d, 0xfe, 0x6f, 0x12, 0x3f,
  0xd8, 0x3c, 0x1d, 0xbf, 0x02, 0x7c, 0x80, 0x3e, 0x90, 0x74, 0x9b, 0x3e,
  0x7b, 0xdf, 0x1f, 0xbe, 0xcc, 0x89, 0xad, 0x3e, 0x5e, 0xde, 0xd3, 0x3b,
  0x4b, 0x26, 0x50, 0xbe, 0xa9, 0x0a, 0x14, 0xbe, 0xda, 0xb8, 0x1a, 0xbe,
  0xe8, 0x11, 0xe0, 0xbe, 0x97, 0xb8, 0x5f, 0xbe, 0xb4, 0xd4, 0x80, 0xbf,
  0x32, 0xb4, 0xf9, 0xbe, 0x0a, 0xfd, 0x7d, 0xbe, 0x50, 0x75, 0x41, 0xbe,
  0xb4, 0xc9, 0x15, 0xbf, 0x4a, 0xde, 0x02, 0xbf, 0x56, 0x65, 0x97, 0x3e,
  0x7c, 0xed, 0xa7, 0x3e, 0x00, 0x96, 0x9e, 0xbd, 0x08, 0x6b, 0x87, 0xbe,
  0x0c, 0x76, 0xcd, 0xbe, 0xd5, 0x6b, 0x97, 0x3e, 0x9b, 0x1f, 0x28, 0x3f,
  0x4b, 0x44, 0xd3, 0xbe, 0x02, 0x44, 0x18, 0x3f, 0xd5, 0xb8, 0xb5, 0xbd,
  0xfa, 0x40, 0x32, 0xbe, 0x02, 0x91, 0xce, 0x3d, 0xad, 0x2d, 0xb7, 0x3e,
  0xac, 0xa9, 0x35, 0xbe, 0x8d, 0x15, 0x3f, 0xbe, 0x8f, 0x60, 0x3e, 0xbf,
  0x5b, 0x9d, 0x37, 0xbf, 0x0a, 0x1c, 0x6f, 0xbe, 0xf5, 0xe8, 0x60, 0x3e,
  0x81, 0xec, 0xc6, 0xbe, 0x04, 0x46, 0xd6, 0xbd, 0x9d, 0x1a, 0x7b, 0x3d,
  0xc2, 0xe9, 0x23, 0x3e, 0x51, 0x35, 0x53, 0xbd, 0xc0, 0x1f, 0xe6, 0x3d,
  0x6b, 0xf1, 0xbb, 0x3e, 0x39, 0x57, 0xc0, 0x3d, 0x3a, 0xdd, 0x79, 0x3f,
  0x9e, 0xfd, 0xff, 0xff, 0x04, 0x00, 0x00, 0x00, 0xe4, 0x01, 0x00, 0x00,
  0x75, 0xc6, 0xa4, 0xbe, 0x0f, 0x20, 0x23, 0x3f, 0xb5, 0x52, 0xa6, 0x3e,
  0xf7, 0xa6, 0x44, 0x3f, 0x26, 0x69, 0x3b, 0xbf, 0x34, 0x0e, 0x32, 0x3e,
  0x73, 0x43, 0x66, 0x3d, 0x5b, 0xe7, 0xdd, 0x3e, 0x90, 0xed, 0x0b, 0xbf,
  0xf3, 0x51, 0x2f, 0xbf, 0x62, 0xb6, 0xe7, 0x3d, 0xfe, 0xe7, 0x23, 0x3e,
  0xf8, 0x2d, 0x0f, 0x3f, 0x15, 0xc4, 0x22, 0x3f, 0xc2, 0xee, 0x06, 0x40,
  0x84, 0xe5, 0xc2, 0xbd, 0x3c, 0x25, 0x9e, 0xbd, 0xcb, 0xe6, 0xdd, 0xbe,
  0x22, 0xd0, 0x23, 0xbe, 0xab, 0xd2, 0xac, 0xbf, 0xd5, 0xaf, 0x7d, 0xbf,
  0x87, 0xdf, 0xe7, 0x3f, 0x18, 0x4e, 0x86, 0xbe, 0xb4, 0xb0, 0x50, 0x3e,
  0xe3, 0x93, 0xc6, 0xbe, 0xbd, 0x76, 0x38, 0x3f, 0xd4, 0x17, 0x11, 0xbf,
  0xd4, 0x00, 0x3b, 0x3d, 0x52, 0xe4, 0xdc, 0xbc, 0x1f, 0x5d, 0x9f, 0x3e,
  0xb0, 0xc2, 0xaa, 0x3e, 0xfd, 0xba, 0x14, 0x3e, 0xe4, 0xa6, 0xa0, 0x3d,
  0x9a, 0x88, 0xf0, 0xbd, 0x2f, 0xab, 0x08, 0x40, 0xc9, 0xa2, 0xf6, 0x3e,
  0x90, 0x58, 0x57, 0x40, 0xb2, 0x7f, 0x72, 0x3e, 0x81, 0x46, 0x7b, 0x3e,
  0x5c, 0x05, 0x5c, 0x3d, 0xff, 0xa5, 0x51, 0x3e, 0xa2, 0xa8, 0xa3, 0xbf,
  0xca, 0x02, 0x9a, 0xbf, 0x23, 0xbe, 0x2e, 0x40, 0xb3, 0xbf, 0x0b, 0xbf,
  0x6f, 0x40, 0xc1, 0x3e, 0x98, 0xf0, 0x45, 0xbd, 0xd0, 0x69, 0x85, 0x3f,
  0xc2, 0x05, 0x57, 0x3e, 0x99, 0x54, 0xa3, 0xbe, 0x71, 0xf8, 0xc6, 0xbd,
  0x4e, 0x01, 0xb6, 0x3e, 0x45, 0xf8, 0x64, 0xbf, 0x77, 0xc9, 0x62, 0xbe,
  0x4d, 0x24, 0x84, 0x3d, 0x74, 0x35, 0xe2, 0xbe, 0xb0, 0xe0, 0x6e, 0xbf,
  0x9c, 0x1b, 0xb0, 0xbe, 0x8a, 0xab, 0x86, 0xbf, 0x3c, 0x95, 0xdb, 0x3d,
  0xcc, 0x56, 0x85, 0xbd, 0x45, 0xeb, 0x2a, 0xbf, 0x9d, 0xd1, 0xe2, 0xbd,
  0xe5, 0x9f, 0x03, 0xbe, 0xd6, 0x16, 0x36, 0xbe, 0xfe, 0xf7, 0x91, 0xbf,
  0x63, 0xae, 0x2a, 0xbf, 0x73, 0x63, 0xac, 0xbe, 0xcd, 0x4f, 0x66, 0x3c,
  0x8a, 0xd2, 0x16, 0x3e, 0xf4, 0xb1, 0xfa, 0xbe, 0x4b, 0xed, 0x04, 0x3e,
  0x42, 0xcc, 0xbc, 0xbe, 0x62, 0x29, 0xba, 0xbe, 0x2a, 0x65, 0x01, 0xbf,
  0x9a, 0x75, 0x24, 0x3e, 0x5a, 0xe7, 0xaa, 0xbe, 0xd5, 0x2e, 0x1b, 0xbe,
  0x73, 0x1a, 0x11, 0xc0, 0x95, 0x83, 0xbb, 0xbc, 0xfa, 0x8b, 0x55, 0xc0,
  0x5b, 0xf7, 0x51, 0x3e, 0xd5, 0xd2, 0xb0, 0x3d, 0x24, 0x03, 0x18, 0xbf,
  0x43, 0xf6, 0xc9, 0xbe, 0x4a, 0x0c, 0x80, 0x3d, 0x58, 0x80, 0x82, 0xbe,
  0xe1, 0x20, 0xed, 0xbf, 0xa0, 0xa8, 0x9c, 0x3e, 0x14, 0xc4, 0x67, 0xbf,
  0xf1, 0xa4, 0xc7, 0xbe, 0x73, 0x36, 0x94, 0xbf, 0x4f, 0x03, 0x6e, 0xbe,
  0x80, 0x81, 0x29, 0x3e, 0x5e, 0x1a, 0x66, 0x3d, 0xa9, 0x48, 0x23, 0xbd,
  0x2a, 0x04, 0x2d, 0xbf, 0x84, 0xdb, 0x1b, 0xbf, 0x51, 0x20, 0xb5, 0xbe,
  0x55, 0x21, 0x2a, 0xbd, 0x23, 0x02, 0x62, 0x3f, 0x6b, 0x5e, 0x63, 0x3f,
  0x04, 0x62, 0x4a, 0x40, 0x9a, 0xaf, 0xce, 0xbc, 0xcc, 0x92, 0x00, 0xbe,
  0x6c, 0x74, 0xb4, 0xbe, 0xa5, 0x01, 0x79, 0xbe, 0x34, 0x34, 0xc0, 0xbf,
  0x28, 0x50, 0xdd, 0xbf, 0x5f, 0xf5, 0xae, 0x3f, 0x3a, 0xfa, 0xda, 0x3e,
  0xea, 0x6c, 0x39, 0xc0, 0xfa, 0x76, 0xa1, 0xbe, 0x7f, 0x6c, 0x77, 0xc0,
  0x32, 0x0f, 0x90, 0x3d, 0x82, 0xee, 0xac, 0xbc, 0x9e, 0x49, 0x27, 0xbe,
  0xca, 0x98, 0x96, 0x3d, 0x20, 0xf0, 0xe3, 0x3d, 0xc3, 0x9e, 0x99, 0x3e,
  0xe6, 0xd6, 0x3c, 0xc0, 0x8e, 0xff, 0xff, 0xff, 0x04, 0x00, 0x00, 0x00,
  0x2c, 0x00, 0x00, 0x00, 0xad, 0x2f, 0x1a, 0xbe, 0xec, 0xe8, 0x22, 0xbe,
  0xd2, 0xb8, 0xca, 0xbd, 0x4c, 0x00, 0x9d, 0xbe, 0xc4, 0x2d, 0x70, 0xbe,
  0x92, 0x42, 0x80, 0x3e, 0x31, 0x94, 0x63, 0xbe, 0x97, 0x34, 0xf0, 0x3e,
  0x4a, 0x4b, 0x98, 0xbc, 0xf9, 0xda, 0xc6, 0xbd, 0xba, 0xa3, 0x2b, 0x3f,
  0xc6, 0xff, 0xff, 0xff, 0x04, 0x00, 0x00, 0x00, 0x2c, 0x00, 0x00, 0x00,
  0xc3, 0x4d, 0x9d, 0xbe, 0x00, 0x00, 0x00, 0x00, 0x34, 0x65, 0xaf, 0xbc,
  0xaa, 0x72, 0x96, 0x3e, 0x99, 0xf1, 0x5f, 0x3f, 0xd0, 0xf3, 0x41, 0x3e,
  0x8e, 0x81, 0xf0, 0x3c, 0x7a, 0x42, 0xa5, 0x3d, 0xfc, 0xa6, 0xf4, 0xbd,
  0xd4, 0xc3, 0x57, 0xbe, 0x5b, 0x6e, 0x03, 0x3e, 0x00, 0x00, 0x06, 0x00,
  0x08, 0x00, 0x04, 0x00, 0x06, 0x00, 0x00, 0x00, 0x04, 0x00, 0x00, 0x00,
  0x04, 0x00, 0x00, 0x00, 0x1b, 0x52, 0x7f, 0xbe, 0x30, 0xfa, 0xff, 0xff,
  0x34, 0xfa, 0xff, 0xff, 0x0f, 0x00, 0x00, 0x00, 0x4d, 0x4c, 0x49, 0x52,
  0x20, 0x43, 0x6f, 0x6e, 0x76, 0x65, 0x72, 0x74, 0x65, 0x64, 0x2e, 0x00,
  0x01, 0x00, 0x00, 0x00, 0x14, 0x00, 0x00, 0x00, 0x00, 0x00, 0x0e, 0x00,
  0x18, 0x00, 0x14, 0x00, 0x10, 0x00, 0x0c, 0x00, 0x08, 0x00, 0x04, 0x00,
  0x0e, 0x00, 0x00, 0x00, 0x14, 0x00, 0x00, 0x00, 0x1c, 0x00, 0x00, 0x00,
  0x08, 0x01, 0x00, 0x00, 0x0c, 0x01, 0x00, 0x00, 0x10, 0x01, 0x00, 0x00,
  0x04, 0x00, 0x00, 0x00, 0x6d, 0x61, 0x69, 0x6e, 0x00, 0x00, 0x00, 0x00,
  0x04, 0x00, 0x00, 0x00, 0xb0, 0x00, 0x00, 0x00, 0x68, 0x00, 0x00, 0x00,
  0x34, 0x00, 0x00, 0x00, 0x10, 0x00, 0x00, 0x00, 0x00, 0x00, 0x0a, 0x00,
  0x10, 0x00, 0x0c, 0x00, 0x08, 0x00, 0x04, 0x00, 0x0a, 0x00, 0x00, 0x00,
  0x0c, 0x00, 0x00, 0x00, 0x10, 0x00, 0x00, 0x00, 0x01, 0x00, 0x00, 0x00,
  0x01, 0x00, 0x00, 0x00, 0x0a, 0x00, 0x00, 0x00, 0x01, 0x00, 0x00, 0x00,
  0x09, 0x00, 0x00, 0x00, 0x9a, 0xff, 0xff, 0xff, 0x10, 0x00, 0x00, 0x00,
  0x00, 0x00, 0x00, 0x08, 0x0c, 0x00, 0x00, 0x00, 0x10, 0x00, 0x00, 0x00,
  0xdc, 0xfa, 0xff, 0xff, 0x01, 0x00, 0x00, 0x00, 0x09, 0x00, 0x00, 0x00,
  0x03, 0x00, 0x00, 0x00, 0x08, 0x00, 0x00, 0x00, 0x06, 0x00, 0x00, 0x00,
  0x01, 0x00, 0x00, 0x00, 0xca, 0xff, 0xff, 0xff, 0x10, 0x00, 0x00, 0x00,
  0x00, 0x00, 0x00, 0x08, 0x10, 0x00, 0x00, 0x00, 0x14, 0x00, 0x00, 0x00,
  0xba, 0xff, 0xff, 0xff, 0x00, 0x00, 0x00, 0x01, 0x01, 0x00, 0x00, 0x00,
  0x08, 0x00, 0x00, 0x00, 0x03, 0x00, 0x00, 0x00, 0x07, 0x00, 0x00, 0x00,
  0x05, 0x00, 0x00, 0x00, 0x02, 0x00, 0x00, 0x00, 0x00, 0x00, 0x0e, 0x00,
  0x16, 0x00, 0x00, 0x00, 0x10, 0x00, 0x0c, 0x00, 0x0b, 0x00, 0x04, 0x00,
  0x0e, 0x00, 0x00, 0x00, 0x18, 0x00, 0x00, 0x00, 0x00, 0x00, 0x00, 0x08,
  0x18, 0x00, 0x00, 0x00, 0x1c, 0x00, 0x00, 0x00, 0x00, 0x00, 0x06, 0x00,
  0x08, 0x00, 0x07, 0x00, 0x06, 0x00, 0x00, 0x00, 0x00, 0x00, 0x00, 0x01,
  0x01, 0x00, 0x00, 0x00, 0x07, 0x00, 0x00, 0x00, 0x03, 0x00, 0x00, 0x00,
  0x00, 0x00, 0x00, 0x00, 0x04, 0x00, 0x00, 0x00, 0x03, 0x00, 0x00, 0x00,
  0x01, 0x00, 0x00, 0x00, 0x0a, 0x00, 0x00, 0x00, 0x01, 0x00, 0x00, 0x00,
  0x00, 0x00, 0x00, 0x00, 0x0b, 0x00, 0x00, 0x00, 0x4c, 0x04, 0x00, 0x00,
  0xd8, 0x03, 0x00, 0x00, 0x64, 0x03, 0x00, 0x00, 0x08, 0x03, 0x00, 0x00,
  0xb8, 0x02, 0x00, 0x00, 0x68, 0x02, 0x00, 0x00, 0x18, 0x02, 0x00, 0x00,
  0x7c, 0x01, 0x00, 0x00, 0xe0, 0x00, 0x00, 0x00, 0x60, 0x00, 0x00, 0x00,
  0x04, 0x00, 0x00, 0x00, 0xf6, 0xfb, 0xff, 0xff, 0x00, 0x00, 0x00, 0x01,
  0x14, 0x00, 0x00, 0x00, 0x1c, 0x00, 0x00, 0x00, 0x1c, 0x00, 0x00, 0x00,
  0x0b, 0x00, 0x00, 0x00, 0x34, 0x00, 0x00, 0x00, 0x02, 0x00, 0x00, 0x00,
  0xff, 0xff, 0xff, 0xff, 0x01, 0x00, 0x00, 0x00, 0xe0, 0xfb, 0xff, 0xff,
  0x19, 0x00, 0x00, 0x00, 0x53, 0x74, 0x61, 0x74, 0x65, 0x66, 0x75, 0x6c,
  0x50, 0x61, 0x72, 0x74, 0x69, 0x74, 0x69, 0x6f, 0x6e, 0x65, 0x64, 0x43,
  0x61, 0x6c, 0x6c, 0x3a, 0x30, 0x00, 0x00, 0x00, 0x02, 0x00, 0x00, 0x00,
  0x01, 0x00, 0x00, 0x00, 0x01, 0x00, 0x00, 0x00, 0x4e, 0xfc, 0xff, 0xff,
  0x00, 0x00, 0x00, 0x01, 0x14, 0x00, 0x00, 0x00, 0x1c, 0x00, 0x00, 0x00,
  0x1c, 0x00, 0x00, 0x00, 0x0a, 0x00, 0x00, 0x00, 0x58, 0x00, 0x00, 0x00,
  0x02, 0x00, 0x00, 0x00, 0xff, 0xff, 0xff, 0xff, 0x01, 0x00, 0x00, 0x00,
  0x38, 0xfc, 0xff, 0xff, 0x3e, 0x00, 0x00, 0x00, 0x73, 0x65, 0x71, 0x75,
  0x65, 0x6e, 0x74, 0x69, 0x61, 0x6c, 0x5f, 0x33, 0x35, 0x2f, 0x64, 0x65,
  0x6e, 0x73, 0x65, 0x5f, 0x31, 0x30, 0x37, 0x2f, 0x4d, 0x61, 0x74, 0x4d,
  0x75, 0x6c, 0x3b, 0x73, 0x65, 0x71, 0x75, 0x65, 0x6e, 0x74, 0x69, 0x61,
  0x6c, 0x5f, 0x33, 0x35, 0x2f, 0x64, 0x65, 0x6e, 0x73, 0x65, 0x5f, 0x31,
  0x30, 0x37, 0x2f, 0x42, 0x69, 0x61, 0x73, 0x41, 0x64, 0x64, 0x00, 0x00,
  0x02, 0x00, 0x00, 0x00, 0x01, 0x00, 0x00, 0x00, 0x01, 0x00, 0x00, 0x00,
  0xca, 0xfc, 0xff, 0xff, 0x00, 0x00, 0x00, 0x01, 0x14, 0x00, 0x00, 0x00,
  0x1c, 0x00, 0x00, 0x00, 0x1c, 0x00, 0x00, 0x00, 0x09, 0x00, 0x00, 0x00,
  0x74, 0x00, 0x00, 0x00, 0x02, 0x00, 0x00, 0x00, 0xff, 0xff, 0xff, 0xff,
  0x0b, 0x00, 0x00, 0x00, 0xb4, 0xfc, 0xff, 0xff, 0x5b, 0x00, 0x00, 0x00,
  0x73, 0x65, 0x71, 0x75, 0x65, 0x6e, 0x74, 0x69, 0x61, 0x6c, 0x5f, 0x33,
  0x35, 0x2f, 0x64, 0x65, 0x6e, 0x73, 0x65, 0x5f, 0x31, 0x30, 0x36, 0x2f,
  0x4d, 0x61, 0x74, 0x4d, 0x75, 0x6c, 0x3b, 0x73, 0x65, 0x71, 0x75, 0x65,
  0x6e, 0x74, 0x69, 0x61, 0x6c, 0x5f, 0x33, 0x35, 0x2f, 0x64, 0x65, 0x6e,
  0x73, 0x65, 0x5f, 0x31, 0x30, 0x36, 0x2f, 0x52, 0x65, 0x6c, 0x75, 0x3b,
  0x73, 0x65, 0x71, 0x75, 0x65, 0x6e, 0x74, 0x69, 0x61, 0x6c, 0x5f, 0x33,
  0x35, 0x2f, 0x64, 0x65, 0x6e, 0x73, 0x65, 0x5f, 0x31, 0x30, 0x36, 0x2f,
  0x42, 0x69, 0x61, 0x73, 0x41, 0x64, 0x64, 0x00, 0x02, 0x00, 0x00, 0x00,
  0x01, 0x00, 0x00, 0x00, 0x0b, 0x00, 0x00, 0x00, 0x62, 0xfd, 0xff, 0xff,
  0x00, 0x00, 0x00, 0x01, 0x14, 0x00, 0x00, 0x00, 0x1c, 0x00, 0x00, 0x00,
  0x1c, 0x00, 0x00, 0x00, 0x08, 0x00, 0x00, 0x00, 0x74, 0x00, 0x00, 0x00,
  0x02, 0x00, 0x00, 0x00, 0xff, 0xff, 0xff, 0xff, 0x0b, 0x00, 0x00, 0x00,
  0x4c, 0xfd, 0xff, 0xff, 0x5b, 0x00, 0x00, 0x00, 0x73, 0x65, 0x71, 0x75,
  0x65, 0x6e, 0x74, 0x69, 0x61, 0x6c, 0x5f, 0x33, 0x35, 0x2f, 0x64, 0x65,
  0x6e, 0x73, 0x65, 0x5f, 0x31, 0x30, 0x35, 0x2f, 0x4d, 0x61, 0x74, 0x4d,
  0x75, 0x6c, 0x3b, 0x73, 0x65, 0x71, 0x75, 0x65, 0x6e, 0x74, 0x69, 0x61,
  0x6c, 0x5f, 0x33, 0x35, 0x2f, 0x64, 0x65, 0x6e, 0x73, 0x65, 0x5f, 0x31,
  0x30, 0x35, 0x2f, 0x52, 0x65, 0x6c, 0x75, 0x3b, 0x73, 0x65, 0x71, 0x75,
  0x65, 0x6e, 0x74, 0x69, 0x61, 0x6c, 0x5f, 0x33, 0x35, 0x2f, 0x64, 0x65,
  0x6e, 0x73, 0x65, 0x5f, 0x31, 0x30, 0x35, 0x2f, 0x42, 0x69, 0x61, 0x73,
  0x41, 0x64, 0x64, 0x00, 0x02, 0x00, 0x00, 0x00, 0x01, 0x00, 0x00, 0x00,
  0x0b, 0x00, 0x00, 0x00, 0x6a, 0xfe, 0xff, 0xff, 0x00, 0x00, 0x00, 0x01,
  0x10, 0x00, 0x00, 0x00, 0x10, 0x00, 0x00, 0x00, 0x07, 0x00, 0x00, 0x00,
  0x2c, 0x00, 0x00, 0x00, 0xd4, 0xfd, 0xff, 0xff, 0x1e, 0x00, 0x00, 0x00,
  0x73, 0x65, 0x71, 0x75, 0x65, 0x6e, 0x74, 0x69, 0x61, 0x6c, 0x5f, 0x33,
  0x35, 0x2f, 0x64, 0x65, 0x6e, 0x73, 0x65, 0x5f, 0x31, 0x30, 0x37, 0x2f,
  0x4d, 0x61, 0x74, 0x4d, 0x75, 0x6c, 0x00, 0x00, 0x02, 0x00, 0x00, 0x00,
  0x01, 0x00, 0x00, 0x00, 0x0b, 0x00, 0x00, 0x00, 0xb6, 0xfe, 0xff, 0xff,
  0x00, 0x00, 0x00, 0x01, 0x10, 0x00, 0x00, 0x00, 0x10, 0x00, 0x00, 0x00,
  0x06, 0x00, 0x00, 0x00, 0x2c, 0x00, 0x00, 0x00, 0x20, 0xfe, 0xff, 0xff,
  0x1e, 0x00, 0x00, 0x00, 0x73, 0x65, 0x71, 0x75, 0x65, 0x6e, 0x74, 0x69,
  0x61, 0x6c, 0x5f, 0x33, 0x35, 0x2f, 0x64, 0x65, 0x6e, 0x73, 0x65, 0x5f,
  0x31, 0x30, 0x36, 0x2f, 0x4d, 0x61, 0x74, 0x4d, 0x75, 0x6c, 0x00, 0x00,
  0x02, 0x00, 0x00, 0x00, 0x0b, 0x00, 0x00, 0x00, 0x0b, 0x00, 0x00, 0x00,
  0x02, 0xff, 0xff, 0xff, 0x00, 0x00, 0x00, 0x01, 0x10, 0x00, 0x00, 0x00,
  0x10, 0x00, 0x00, 0x00, 0x05, 0x00, 0x00, 0x00, 0x2c, 0x00, 0x00, 0x00,
  0x6c, 0xfe, 0xff, 0xff, 0x1e, 0x00, 0x00, 0x00, 0x73, 0x65, 0x71, 0x75,
  0x65, 0x6e, 0x74, 0x69, 0x61, 0x6c, 0x5f, 0x33, 0x35, 0x2f, 0x64, 0x65,
  0x6e, 0x73, 0x65, 0x5f, 0x31, 0x30, 0x35, 0x2f, 0x4d, 0x61, 0x74, 0x4d,
  0x75, 0x6c, 0x00, 0x00, 0x02, 0x00, 0x00, 0x00, 0x0b, 0x00, 0x00, 0x00,
  0x0b, 0x00, 0x00, 0x00, 0x4e, 0xff, 0xff, 0xff, 0x00, 0x00, 0x00, 0x01,
  0x10, 0x00, 0x00, 0x00, 0x10, 0x00, 0x00, 0x00, 0x04, 0x00, 0x00, 0x00,
  0x3c, 0x00, 0x00, 0x00, 0xb8, 0xfe, 0xff, 0xff, 0x2e, 0x00, 0x00, 0x00,
  0x73, 0x65, 0x71, 0x75, 0x65, 0x6e, 0x74, 0x69, 0x61, 0x6c, 0x5f, 0x33,
  0x35, 0x2f, 0x64, 0x65, 0x6e, 0x73, 0x65, 0x5f, 0x31, 0x30, 0x35, 0x2f,
  0x42, 0x69, 0x61, 0x73, 0x41, 0x64, 0x64, 0x2f, 0x52, 0x65, 0x61, 0x64,
  0x56, 0x61, 0x72, 0x69, 0x61, 0x62, 0x6c, 0x65, 0x4f, 0x70, 0x00, 0x00,
  0x01, 0x00, 0x00, 0x00, 0x0b, 0x00, 0x00, 0x00, 0xa6, 0xff, 0xff, 0xff,
  0x00, 0x00, 0x00, 0x01, 0x10, 0x00, 0x00, 0x00, 0x10, 0x00, 0x00, 0x00,
  0x03, 0x00, 0x00, 0x00, 0x3c, 0x00, 0x00, 0x00, 0x10, 0xff, 0xff, 0xff,
  0x2e, 0x00, 0x00, 0x00, 0x73, 0x65, 0x71, 0x75, 0x65, 0x6e, 0x74, 0x69,
  0x61, 0x6c, 0x5f, 0x33, 0x35, 0x2f, 0x64, 0x65, 0x6e, 0x73, 0x65, 0x5f,
  0x31, 0x30, 0x36, 0x2f, 0x42, 0x69, 0x61, 0x73, 0x41, 0x64, 0x64, 0x2f,
  0x52, 0x65, 0x61, 0x64, 0x56, 0x61, 0x72, 0x69, 0x61, 0x62, 0x6c, 0x65,
  0x4f, 0x70, 0x00, 0x00, 0x01, 0x00, 0x00, 0x00, 0x0b, 0x00, 0x00, 0x00,
  0x00, 0x00, 0x16, 0x00, 0x18, 0x00, 0x14, 0x00, 0x00, 0x00, 0x10, 0x00,
  0x0c, 0x00, 0x08, 0x00, 0x00, 0x00, 0x00, 0x00, 0x00, 0x00, 0x07, 0x00,
  0x16, 0x00, 0x00, 0x00, 0x00, 0x00, 0x00, 0x01, 0x10, 0x00, 0x00, 0x00,
  0x10, 0x00, 0x00, 0x00, 0x02, 0x00, 0x00, 0x00, 0x3c, 0x00, 0x00, 0x00,
  0x80, 0xff, 0xff, 0xff, 0x2e, 0x00, 0x00, 0x00, 0x73, 0x65, 0x71, 0x75,
  0x65, 0x6e, 0x74, 0x69, 0x61, 0x6c, 0x5f, 0x33, 0x35, 0x2f, 0x64, 0x65,
  0x6e, 0x73, 0x65, 0x5f, 0x31, 0x30, 0x37, 0x2f, 0x42, 0x69, 0x61, 0x73,
  0x41, 0x64, 0x64, 0x2f, 0x52, 0x65, 0x61, 0x64, 0x56, 0x61, 0x72, 0x69,
  0x61, 0x62, 0x6c, 0x65, 0x4f, 0x70, 0x00, 0x00, 0x01, 0x00, 0x00, 0x00,
  0x01, 0x00, 0x00, 0x00, 0x00, 0x00, 0x16, 0x00, 0x1c, 0x00, 0x18, 0x00,
  0x00, 0x00, 0x14, 0x00, 0x10, 0x00, 0x0c, 0x00, 0x00, 0x00, 0x00, 0x00,
  0x08, 0x00, 0x07, 0x00, 0x16, 0x00, 0x00, 0x00, 0x00, 0x00, 0x00, 0x01,
  0x14, 0x00, 0x00, 0x00, 0x20, 0x00, 0x00, 0x00, 0x20, 0x00, 0x00, 0x00,
  0x01, 0x00, 0x00, 0x00, 0x40, 0x00, 0x00, 0x00, 0x02, 0x00, 0x00, 0x00,
  0xff, 0xff, 0xff, 0xff, 0x0b, 0x00, 0x00, 0x00, 0x04, 0x00, 0x04, 0x00,
  0x04, 0x00, 0x00, 0x00, 0x21, 0x00, 0x00, 0x00, 0x73, 0x65, 0x72, 0x76,
  0x69, 0x6e, 0x67, 0x5f, 0x64, 0x65, 0x66, 0x61, 0x75, 0x6c, 0x74, 0x5f,
  0x64, 0x65, 0x6e, 0x73, 0x65, 0x5f, 0x31, 0x30, 0x35, 0x5f, 0x69, 0x6e,
  0x70, 0x75, 0x74, 0x3a, 0x30, 0x00, 0x00, 0x00, 0x02, 0x00, 0x00, 0x00,
  0x01, 0x00, 0x00, 0x00, 0x0b, 0x00, 0x00, 0x00, 0x02, 0x00, 0x00, 0x00,
  0x20, 0x00, 0x00, 0x00, 0x04, 0x00, 0x00, 0x00, 0xf4, 0xff, 0xff, 0xff,
  0x0e, 0x00, 0x00, 0x00, 0x00, 0x00, 0x00, 0x0e, 0x0c, 0x00, 0x0c, 0x00,
  0x0b, 0x00, 0x00, 0x00, 0x00, 0x00, 0x04, 0x00, 0x0c, 0x00, 0x00, 0x00,
  0x09, 0x00, 0x00, 0x00, 0x00, 0x00, 0x00, 0x09
};
